<pad>	0
<unk>	0
<s>	0
</s>	0
<|system|>	0
<|user|>	0
<|assistant|>	0
▁a	-0
▁t	-1
es	-2
in	-3
at	-4
on	-5
er	-6
▁c	-7
en	-8
or	-9
ion	-10
▁s	-11
re	-12
an	-13
is	-14
ing	-15
▁p	-16
ed	-17
▁th	-18
▁A	-19
▁b	-20
le	-21
est	-22
▁an	-23
al	-24
▁d	-25
ct	-26
ro	-27
it	-28
▁f	-29
▁m	-30
▁in	-31
ation	-32
▁is	-33
ent	-34
▁and	-35
ar	-36
▁re	-37
▁to	-38
▁test	-39
▁the	-40
us	-41
▁e	-42
▁o	-43
ut	-44
▁w	-45
ss	-46
ic	-47
om	-48
el	-49
et	-50
▁l	-51
ser	-52
od	-53
▁n	-54
tan	-55
res	-56
ul	-57
▁be	-58
un	-59
tant	-60
▁U	-61
▁us	-62
▁can	-63
ce	-64
am	-65
▁pro	-66
id	-67
▁ex	-68
▁Ass	-69
istant	-70
▁User	-71
▁Assistant	-72
if	-73
▁W	-74
▁v	-75
▁of	-76
ly	-77
ect	-78
▁con	-79
ge	-80
ch	-81
ain	-82
▁com	-83
ur	-84
hat	-85
▁P	-86
im	-87
ers	-88
ction	-89
ig	-90
as	-91
▁h	-92
▁What	-93
qu	-94
▁that	-95
ate	-96
▁T	-97
▁st	-98
ow	-99
▁mod	-100
ab	-101
age	-102
orm	-103
ay	-104
pl	-105
ec	-106
il	-107
▁dat	-108
ess	-109
▁model	-110
▁or	-111
▁lo	-112
ter	-113
▁wh	-114
ork	-115
▁res	-116
ho	-117
▁data	-118
▁tr	-119
ment	-120
lear	-121
te	-122
▁aut	-123
▁de	-124
yt	-125
ity	-126
form	-127
iz	-128
av	-129
learn	-130
▁learn	-131
▁testing	-132
xt	-133
able	-134
▁su	-135
ang	-136
ver	-137
▁g	-138
work	-139
▁comp	-140
uld	-141
▁for	-142
▁Th	-143
▁val	-144
aining	-145
▁S	-146
▁rep	-147
▁requ	-148
▁I	-149
ken	-150
um	-151
ith	-152
▁used	-153
▁autom	-154
ication	-155
▁un	-156
▁sho	-157
▁should	-158
ts	-159
▁se	-160
▁cont	-161
▁tests	-162
igh	-163
▁ap	-164
▁on	-165
ated	-166
red	-167
▁so	-168
cess	-169
unction	-170
ri	-171
▁ch	-172
▁token	-173
ence	-174
▁are	-175
▁with	-176
▁im	-177
▁ne	-178
ected	-179
iv	-180
▁function	-181
row	-182
▁par	-183
▁training	-184
▁fi	-185
▁The	-186
rowser	-187
▁H	-188
ram	-189
are	-190
▁exp	-191
ad	-192
ies	-193
low	-194
se	-195
▁al	-196
ug	-197
▁Pyt	-198
▁ver	-199
ol	-200
her	-201
ple	-202
ight	-203
▁browser	-204
ally	-205
hav	-206
▁comm	-207
▁behav	-208
ions	-209
ine	-210
▁net	-211
▁network	-212
ot	-213
pt	-214
▁verif	-215
PI	-216
vid	-217
▁it	-218
▁API	-219
end	-220
angu	-221
▁langu	-222
▁learning	-223
ft	-224
ach	-225
▁sy	-226
▁int	-227
ure	-228
ware	-229
wr	-230
▁te	-231
▁request	-232
▁language	-233
ail	-234
aywr	-235
▁appl	-236
aywright	-237
▁process	-238
por	-239
ste	-240
ting	-241
ftware	-242
ps	-243
▁when	-244
du	-245
ior	-246
rom	-247
▁loc	-248
eni	-249
ecut	-250
▁execut	-251
▁behavior	-252
▁application	-253
▁Pl	-254
▁by	-255
▁def	-256
▁provid	-257
ful	-258
▁as	-259
ress	-260
hon	-261
▁page	-262
▁Python	-263
▁Playwright	-264
▁automation	-265
▁cl	-266
amet	-267
stem	-268
ization	-269
per	-270
ult	-271
▁cod	-272
▁from	-273
put	-274
ator	-275
ble	-276
pon	-277
▁ac	-278
▁per	-279
lement	-280
▁inter	-281
▁system	-282
▁expected	-283
▁software	-284
▁C	-285
fer	-286
▁do	-287
ations	-288
▁use	-289
▁valu	-290
ctions	-291
▁common	-292
ates	-293
▁dif	-294
▁valid	-295
▁paramet	-296
formation	-297
▁r	-298
ener	-299
ject	-300
▁pyt	-301
▁code	-302
▁pytest	-303
▁respon	-304
▁element	-305
▁information	-306
up	-307
ces	-308
ore	-309
ural	-310
▁allow	-311
▁using	-312
▁contain	-313
os	-314
▁rel	-315
ality	-316
▁G	-317
▁me	-318
▁ob	-319
▁des	-320
▁text	-321
▁E	-322
ial	-323
ugh	-324
redi	-325
▁ass	-326
▁inc	-327
▁exam	-328
ression	-329
ents	-330
gram	-331
ures	-332
▁differ	-333
op	-334
act	-335
▁man	-336
▁perform	-337
ke	-338
oc	-339
▁M	-340
all	-341
dit	-342
▁predi	-343
gression	-344
▁locator	-345
ass	-346
val	-347
▁en	-348
▁chang	-349
▁gener	-350
▁input	-351
▁commonly	-352
pro	-353
ual	-354
▁An	-355
▁at	-356
ding	-357
ical	-358
tern	-359
▁impor	-360
▁repres	-361
▁D	-362
▁sc	-363
ific	-364
▁cre	-365
▁tokens	-366
▁program	-367
ir	-368
ive	-369
▁ma	-370
▁Sel	-371
▁log	-372
▁neural	-373
▁parameters	-374
eb	-375
▁HT	-376
▁bet	-377
▁det	-378
▁str	-379
▁defect	-380
▁different	-381
ee	-382
▁not	-383
▁pat	-384
TP	-385
ag	-386
st	-387
ace	-388
ert	-389
our	-390
▁af	-391
▁sm	-392
ating	-393
enium	-394
▁HTTP	-395
▁comput	-396
▁Selenium	-397
ans	-398
aus	-399
ples	-400
▁ind	-401
▁Test	-402
▁fail	-403
▁such	-404
▁work	-405
▁requi	-406
▁verify	-407
lu	-408
ame	-409
▁sp	-410
rame	-411
▁bec	-412
▁tim	-413
▁und	-414
achine	-415
▁frame	-416
▁changes	-417
▁pattern	-418
▁response	-419
▁framework	-420
▁important	-421
▁into	-422
▁sequ	-423
ks	-424
po	-425
▁F	-426
▁id	-427
blem	-428
▁How	-429
▁how	-430
▁num	-431
▁allows	-432
▁assert	-433
▁condit	-434
we	-435
ist	-436
ween	-437
▁may	-438
▁thro	-439
▁resour	-440
▁useful	-441
▁between	-442
▁provides	-443
▁functionality	-444
▁R	-445
ell	-446
▁ar	-447
duce	-448
▁set	-449
▁auth	-450
▁oper	-451
▁state	-452
▁object	-453
▁problem	-454
▁through	-455
▁examples	-456
▁patterns	-457
ait	-458
ari	-459
pend	-460
▁cas	-461
▁its	-462
▁lay	-463
▁desc	-464
▁loss	-465
▁ident	-466
▁unders	-467
▁values	-468
ac	-469
rib	-470
vel	-471
rect	-472
▁act	-473
▁met	-474
ether	-475
▁fixt	-476
▁repor	-477
▁small	-478
ansform	-479
▁identif	-480
▁represent	-481
▁understan	-482
▁opt	-483
▁spec	-484
▁inclu	-485
▁regression	-486
ard	-487
ary	-488
ier	-489
ign	-490
ood	-491
rol	-492
teg	-493
▁ot	-494
▁qu	-495
▁up	-496
ient	-497
iple	-498
uring	-499
▁chec	-500
▁compon	-501
erm	-502
▁In	-503
▁Tr	-504
▁he	-505
atus	-506
ause	-507
▁control	-508
▁machine	-509
▁systems	-510
▁verifies	-511
▁execution	-512
ve	-513
hod	-514
ied	-515
ile	-516
oun	-517
ted	-518
uct	-519
valu	-520
▁ret	-521
▁sup	-522
▁indic	-523
▁other	-524
ultiple	-525
▁method	-526
▁whether	-527
ize	-528
▁Re	-529
▁ad	-530
▁but	-531
ellig	-532
eniee	-533
ility	-534
▁class	-535
▁resul	-536
▁while	-537
▁Geniee	-538
▁includ	-539
▁result	-540
elligence	-541
▁networks	-542
▁intelligence	-543
eld	-544
ely	-545
ord	-546
▁di	-547
tegr	-548
▁pre	-549
▁many	-550
▁more	-551
▁part	-552
▁time	-553
▁wait	-554
▁after	-555
▁authent	-556
▁execute	-557
▁contains	-558
▁requests	-559
▁sequence	-560
▁validation	-561
ack	-562
and	-563
ens	-564
eps	-565
ming	-566
▁web	-567
ually	-568
▁conf	-569
▁uses	-570
▁comple	-571
▁depend	-572
▁determ	-573
▁provide	-574
▁elements	-575
▁multiple	-576
fit	-577
ror	-578
cept	-579
lect	-580
▁one	-581
iable	-582
orrect	-583
▁appro	-584
▁field	-585
▁condition	-586
▁indicates	-587
ick	-588
ite	-589
▁co	-590
▁er	-591
ages	-592
ased	-593
ible	-594
tent	-595
▁sim	-596
▁form	-597
▁reus	-598
▁error	-599
▁evalu	-600
▁optim	-601
fitting	-602
▁suppor	-603
▁actions	-604
▁describ	-605
▁include	-606
▁predict	-607
▁results	-608
ib	-609
ich	-610
par	-611
vir	-612
fore	-613
▁col	-614
▁hav	-615
▁ser	-616
▁upd	-617
tific	-618
viron	-619
▁does	-620
▁devel	-621
▁integr	-622
▁select	-623
tificial	-624
▁environ	-625
▁require	-626
▁environment	-627
▁B	-628
eat	-629
ill	-630
▁It	-631
▁has	-632
▁hel	-633
▁lar	-634
▁head	-635
▁name	-636
▁numb	-637
▁which	-638
tention	-639
▁interf	-640
▁struct	-641
ansformer	-642
▁reusable	-643
▁components	-644
hi	-645
ous	-646
ten	-647
▁em	-648
hips	-649
izer	-650
plic	-651
ular	-652
▁Aut	-653
▁acc	-654
▁eas	-655
▁tas	-656
iness	-657
▁each	-658
▁good	-659
▁have	-660
▁make	-661
▁over	-662
▁stor	-663
▁user	-664
▁check	-665
▁colle	-666
▁Pytest	-667
▁config	-668
▁create	-669
▁during	-670
▁layers	-671
▁fixture	-672
▁identify	-673
▁reliable	-674
ationships	-675
▁understand	-676
▁programming	-677
▁relationships	-678
▁authentication	-679
bo	-680
co	-681
yp	-682
omm	-683
rad	-684
atic	-685
▁bug	-686
▁bus	-687
▁dis	-688
▁fix	-689
▁hand	-690
ential	-691
▁cases	-692
▁value	-693
▁commun	-694
▁learns	-695
▁because	-696
▁business	-697
▁configur	-698
▁resource	-699
▁automated	-700
▁determine	-701
th	-702
▁4	-703
der	-704
int	-705
pri	-706
urn	-707
▁Ar	-708
▁UI	-709
▁pl	-710
▁ro	-711
ance	-712
ange	-713
atch	-714
avig	-715
ross	-716
very	-717
▁run	-718
▁vis	-719
valid	-720
▁comb	-721
▁cons	-722
▁next	-723
▁norm	-724
priate	-725
verity	-726
▁becom	-727
▁login	-728
▁navig	-729
ational	-730
▁before	-731
▁design	-732
▁reduce	-733
▁return	-734
▁develop	-735
▁invalid	-736
▁specific	-737
▁assertions	-738
▁collection	-739
▁appropriate	-740
ex	-741
gor	-742
ose	-743
rit	-744
str	-745
▁ID	-746
▁bl	-747
▁po	-748
aint	-749
▁div	-750
▁out	-751
▁sol	-752
▁typ	-753
ities	-754
▁pass	-755
▁large	-756
▁steps	-757
▁easier	-758
▁status	-759
▁objects	-760
▁locators	-761
▁attention	-762
▁automatic	-763
▁functions	-764
▁resources	-765
▁Regression	-766
▁artificial	-767
▁processing	-768
()	-769
ap	-770
em	-771
ep	-772
ff	-773
gy	-774
▁L	-775
ant	-776
duc	-777
enc	-778
get	-779
inu	-780
pts	-781
uil	-782
▁Ex	-783
▁St	-784
▁Wh	-785
▁av	-786
abel	-787
flow	-788
ines	-789
ocus	-790
rior	-791
text	-792
▁Web	-793
enari	-794
ments	-795
▁This	-796
▁bloc	-797
▁isol	-798
▁mean	-799
erical	-800
isting	-801
ording	-802
▁click	-803
▁focus	-804
▁impro	-805
▁maint	-806
▁separ	-807
▁suite	-808
▁tasks	-809
ability	-810
▁actual	-811
▁format	-812
▁models	-813
▁update	-814
▁quality	-815
▁respons	-816
▁scenari	-817
▁computer	-818
▁workflow	-819
▁generally	-820
▁numerical	-821
▁configuration	-822
")	-823
RL	-824
by	-825
▁O	-826
cur	-827
gin	-828
ism	-829
ton	-830
▁pr	-831
hout	-832
ling	-833
▁URL	-834
▁aff	-835
▁sub	-836
▁suc	-837
itive	-838
▁case	-839
▁grad	-840
▁high	-841
▁meas	-842
▁unit	-843
▁clear	-844
▁obser	-845
▁often	-846
cessful	-847
riority	-848
▁intera	-849
▁correct	-850
▁defects	-851
▁describes	-852
▁interface	-853
▁operation	-854
▁predictions	-855
▁optimization	-856
("	-857
ak	-858
▁2	-859
con	-860
ide	-861
ols	-862
ong	-863
own	-864
▁40	-865
▁Fi	-866
▁am	-867
aset	-868
ccur	-869
ined	-870
itle	-871
ough	-872
reas	-873
ules	-874
▁bod	-875
▁dec	-876
▁ent	-877
▁ins	-878
ensho	-879
ients	-880
other	-881
river	-882
▁Comm	-883
▁buil	-884
▁cred	-885
▁sess	-886
ithout	-887
pected	-888
▁Autom	-889
▁layer	-890
entials	-891
ilities	-892
reensho	-893
▁across	-894
▁server	-895
▁stable	-896
▁dataset	-897
▁headers	-898
▁Training	-899
▁browsers	-900
▁communic	-901
▁complete	-902
▁existing	-903
▁problems	-904
▁according	-905
▁assertion	-906
▁reporting	-907
▁responses	-908
▁represents	-909
▁successful	-910
▁credentials	-911
▁overfitting	-912
▁automatically	-913
ET	-914
so	-915
▁N	-916
aya	-917
ere	-918
oke	-919
ost	-920
ved	-921
vic	-922
ithm	-923
ized	-924
lean	-925
ount	-926
pect	-927
ured	-928
vers	-929
word	-930
▁inv	-931
▁syn	-932
ences	-933
▁Maya	-934
▁feat	-935
▁list	-936
▁loop	-937
▁mess	-938
▁need	-939
▁read	-940
▁repe	-941
icular	-942
▁based	-943
▁disco	-944
▁instr	-945
▁occur	-946
▁setup	-947
▁title	-948
▁become	-949
▁detail	-950
▁enough	-951
▁inputs	-952
▁output	-953
▁another	-954
▁context	-955
▁example	-956
▁general	-957
▁learned	-958
▁usually	-959
▁without	-960
▁fixtures	-961
▁handling	-962
▁interact	-963
▁maintain	-964
▁normally	-965
▁parameter	-966
▁tokenizer	-967
▁conditions	-968
▁particular	-969
▁computational	-970
▁understanding	-971
eo	-972
alc	-973
ase	-974
ath	-975
eep	-976
gan	-977
hol	-978
led	-979
mor	-980
▁sh	-981
aces	-982
chan	-983
ives	-984
poch	-985
▁For	-986
alcul	-987
duces	-988
ecess	-989
eople	-990
ified	-991
▁Deep	-992
▁WebD	-993
▁also	-994
▁call	-995
▁fact	-996
▁help	-997
▁rece	-998
▁rele	-999
▁same	-1000
▁send	-1001
▁than	-1002
▁unex	-1003
▁vari	-1004
plicit	-1005
▁activ	-1006
▁algor	-1007
▁epoch	-1008
▁label	-1009
▁their	-1010
▁tools	-1011
ception	-1012
chanism	-1013
▁Common	-1014
▁Status	-1015
▁access	-1016
▁button	-1017
▁calcul	-1018
▁stores	-1019
▁tested	-1020
▁continu	-1021
▁project	-1022
▁session	-1023
reenshots	-1024
▁controls	-1025
▁creating	-1026
▁failures	-1027
▁performs	-1028
▁priority	-1029
▁repeated	-1030
▁WebDriver	-1031
▁algorithm	-1032
▁mechanism	-1033
▁unexpected	-1034
▁communicate	-1035
▁integration	-1036
▁transformer	-1037
▁applications	-1038
kn	-1039
to	-1040
ue	-1041
▁X	-1042
chn	-1043
ese	-1044
ibr	-1045
jus	-1046
ply	-1047
ron	-1048
ule	-1049
und	-1050
▁So	-1051
▁ke	-1052
chit	-1053
ffic	-1054
ning	-1055
ound	-1056
ving	-1057
ward	-1058
▁Mod	-1059
▁mak	-1060
▁som	-1061
ately	-1062
ative	-1063
based	-1064
ience	-1065
ional	-1066
point	-1067
▁Arun	-1068
▁evid	-1069
acehol	-1070
▁adjus	-1071
▁begin	-1072
▁block	-1073
▁cover	-1074
▁enter	-1075
▁imple	-1076
▁organ	-1077
▁repro	-1078
chitect	-1079
reasing	-1080
▁checks	-1081
▁instru	-1082
▁locate	-1083
▁number	-1084
▁occurs	-1085
▁simple	-1086
▁numbers	-1087
aceholder	-1088
▁Software	-1089
▁evidence	-1090
▁isolated	-1091
▁severity	-1092
▁architect	-1093
▁dependenc	-1094
▁implement	-1095
▁processed	-1096
▁workflows	-1097
▁prediction	-1098
▁performance	-1099
00	-1100
SS	-1101
lo	-1102
oo	-1103
yn	-1104
ys	-1105
elf	-1106
ern	-1107
ink	-1108
oid	-1109
rst	-1110
ves	-1111
xim	-1112
▁Ne	-1113
▁br	-1114
ared	-1115
ging	-1116
ised	-1117
uman	-1118
vent	-1119
▁CSS	-1120
▁Ear	-1121
▁IDs	-1122
▁add	-1123
▁end	-1124
▁gro	-1125
▁nam	-1126
▁new	-1127
▁pos	-1128
▁rem	-1129
▁too	-1130
▁wid	-1131
aries	-1132
chron	-1133
duced	-1134
ently	-1135
level	-1136
ribut	-1137
tance	-1138
▁Page	-1139
▁They	-1140
▁body	-1141
▁conn	-1142
▁libr	-1143
▁word	-1144
ssible	-1145
▁Inter	-1146
▁batch	-1147
▁build	-1148
▁cause	-1149
▁exper	-1150
▁first	-1151
▁helps	-1152
▁human	-1153
▁somet	-1154
▁those	-1155
▁types	-1156
ailable	-1157
ibility	-1158
▁During	-1159
▁amount	-1160
▁called	-1161
▁change	-1162
▁fields	-1163
▁people	-1164
▁report	-1165
▁strate	-1166
▁widely	-1167
fficient	-1168
▁behaves	-1169
▁methods	-1170
▁produce	-1171
▁related	-1172
▁smaller	-1173
orization	-1174
▁affected	-1175
▁measures	-1176
▁receives	-1177
▁required	-1178
▁scenario	-1179
▁selector	-1180
▁supports	-1181
▁component	-1182
▁correctly	-1183
▁gradients	-1184
▁incorrect	-1185
▁sequences	-1186
▁structure	-1187
▁Transformer	-1188
▁instructions	-1189
▁requirements	-1190
▁=	-1191
▁J	-1192
ast	-1193
com	-1194
eed	-1195
iqu	-1196
lel	-1197
les	-1198
out	-1199
pty	-1200
rie	-1201
▁Ch	-1202
▁XP	-1203
▁ag	-1204
▁if	-1205
arch	-1206
ater	-1207
ists	-1208
perv	-1209
pose	-1210
▁Con	-1211
▁Pro	-1212
▁bro	-1213
▁fil	-1214
▁fol	-1215
▁get	-1216
▁low	-1217
▁rec	-1218
▁sle	-1219
▁tar	-1220
allel	-1221
epend	-1222
▁Good	-1223
▁been	-1224
▁caus	-1225
▁feed	-1226
▁logs	-1227
▁rate	-1228
▁role	-1229
▁size	-1230
▁what	-1231
ingful	-1232
urpose	-1233
▁Earth	-1234
▁XPath	-1235
▁email	-1236
▁empty	-1237
▁every	-1238
▁fails	-1239
▁intro	-1240
▁memor	-1241
▁rules	-1242
▁techn	-1243
▁train	-1244
▁units	-1245
ritical	-1246
▁accept	-1247
▁client	-1248
▁conver	-1249
▁direct	-1250
▁follow	-1251
▁manage	-1252
▁module	-1253
▁target	-1254
▁timing	-1255
pervised	-1256
▁Machine	-1257
▁created	-1258
▁express	-1259
▁failure	-1260
▁automate	-1261
▁generate	-1262
▁password	-1263
▁possible	-1264
▁programs	-1265
▁requires	-1266
▁Automated	-1267
▁available	-1268
▁processes	-1269
▁specified	-1270
▁increasing	-1271
▁operations	-1272
▁structured	-1273
▁architecture	-1274
ON	-1275
OS	-1276
cu	-1277
ok	-1278
su	-1279
ud	-1280
vi	-1281
▁1	-1282
").	-1283
OST	-1284
SON	-1285
agn	-1286
ark	-1287
ays	-1288
bot	-1289
ear	-1290
edi	-1291
lak	-1292
mit	-1293
oal	-1294
▁En	-1295
▁Sc	-1296
▁Te	-1297
▁kn	-1298
▁no	-1299
▁pi	-1300
▁ut	-1301
▁we	-1302
ases	-1303
ecur	-1304
hing	-1305
pact	-1306
uron	-1307
vant	-1308
▁GET	-1309
▁Why	-1310
▁ext	-1311
▁fin	-1312
▁imm	-1313
▁ref	-1314
▁unn	-1315
aract	-1316
idual	-1317
ition	-1318
izing	-1319
stead	-1320
vices	-1321
▁JSON	-1322
▁POST	-1323
▁When	-1324
▁anal	-1325
▁docu	-1326
▁goal	-1327
▁link	-1328
▁pack	-1329
▁poor	-1330
▁prob	-1331
▁star	-1332
▁they	-1333
▁true	-1334
▁avoid	-1335
▁being	-1336
▁clean	-1337
▁could	-1338
▁decis	-1339
▁diagn	-1340
▁divid	-1341
▁files	-1342
▁makes	-1343
▁maxim	-1344
▁quest	-1345
▁smoke	-1346
▁begins	-1347
▁better	-1348
▁define	-1349
▁divers	-1350
▁impact	-1351
▁neuron	-1352
▁observ	-1353
▁retrie	-1354
▁strong	-1355
ecessary	-1356
▁charact	-1357
▁compare	-1358
▁complex	-1359
▁defined	-1360
▁experim	-1361
▁feature	-1362
▁focused	-1363
▁formats	-1364
▁improve	-1365
▁inspect	-1366
▁reports	-1367
▁science	-1368
▁checking	-1369
▁describe	-1370
▁designed	-1371
▁detailed	-1372
▁document	-1373
▁executed	-1374
▁navigate	-1375
▁variable	-1376
▁verified	-1377
fficiently	-1378
▁computers	-1379
▁performed	-1380
▁statement	-1381
▁transform	-1382
▁developers	-1383
▁evaluating	-1384
▁generation	-1385
▁meaningful	-1386
▁mechanisms	-1387
▁navigation	-1388
chronization	-1389
▁interaction	-1390
▁represented	-1391
▁screenshots	-1392
▁dependencies	-1393
▁interactions	-1394
▁authorization	-1395
gn	-1396
ox	-1397
▁"	-1398
▁V	-1399
ata	-1400
den	-1401
eng	-1402
ger	-1403
ify	-1404
olo	-1405
oth	-1406
pen	-1407
rel	-1408
tem	-1409
ust	-1410
▁AI	-1411
▁Ob	-1412
▁Sm	-1413
▁To	-1414
anch	-1415
bout	-1416
cogn	-1417
imes	-1418
ites	-1419
laky	-1420
rite	-1421
ugin	-1422
▁Par	-1423
▁att	-1424
▁cur	-1425
▁fre	-1426
▁inf	-1427
▁key	-1428
▁reg	-1429
ators	-1430
cepts	-1431
ength	-1432
estig	-1433
idden	-1434
round	-1435
▁APIs	-1436
▁Fixt	-1437
▁Over	-1438
▁deep	-1439
▁diff	-1440
▁file	-1441
▁fill	-1442
▁sour	-1443
ardown	-1444
condit	-1445
esting	-1446
▁Model	-1447
▁Token	-1448
▁about	-1449
▁attem	-1450
▁codes	-1451
▁datab	-1452
▁fixed	-1453
▁indiv	-1454
▁logic	-1455
▁secur	-1456
▁waits	-1457
▁works	-1458
duction	-1459
etitive	-1460
▁Object	-1461
▁branch	-1462
▁combin	-1463
▁errors	-1464
▁immedi	-1465
▁manual	-1466
▁plugin	-1467
▁recogn	-1468
▁repeat	-1469
▁search	-1470
▁shared	-1471
▁sleeps	-1472
▁visual	-1473
ependent	-1474
▁classes	-1475
▁content	-1476
▁convers	-1477
▁diction	-1478
▁divided	-1479
▁message	-1480
▁package	-1481
▁purpose	-1482
▁solving	-1483
▁trained	-1484
abilities	-1485
▁critical	-1486
▁discover	-1487
▁explicit	-1488
▁investig	-1489
▁messages	-1490
▁positive	-1491
▁produces	-1492
▁readable	-1493
▁security	-1494
▁separate	-1495
▁teardown	-1496
▁validate	-1497
conditions	-1498
▁authentic	-1499
▁depending	-1500
▁exception	-1501
▁libraries	-1502
▁operating	-1503
▁optimizer	-1504
▁scenarios	-1505
▁sometimes	-1506
▁supported	-1507
▁characters	-1508
▁controlled	-1509
▁difference	-1510
▁evaluation	-1511
▁individual	-1512
▁interfaces	-1513
▁management	-1514
▁repeatedly	-1515
▁Interesting	-1516
▁development	-1517
▁unnecessary	-1518
▁integrations	-1519
▁maintainable	-1520
▁implementation	-1521
▁representations	-1522
",	-1523
AT	-1524
CH	-1525
EL	-1526
UT	-1527
cl	-1528
▁5	-1529
ETE	-1530
bit	-1531
cis	-1532
els	-1533
ics	-1534
isk	-1535
iss	-1536
ium	-1537
oci	-1538
ory	-1539
ove	-1540
ral	-1541
til	-1542
▁20	-1543
▁If	-1544
▁Po	-1545
▁du	-1546
▁ed	-1547
▁sk	-1548
ATCH	-1549
ason	-1550
back	-1551
conn	-1552
ency	-1553
eper	-1554
exam	-1555
gies	-1556
ider	-1557
imit	-1558
ique	-1559
izes	-1560
king	-1561
lier	-1562
rent	-1563
ript	-1564
role	-1565
vice	-1566
▁DEL	-1567
▁PUT	-1568
▁Sun	-1569
▁all	-1570
▁app	-1571
▁enc	-1572
▁min	-1573
▁nat	-1574
▁rat	-1575
▁sat	-1576
▁was	-1577
▁way	-1578
anity	-1579
arily	-1580
atist	-1581
erson	-1582
ially	-1583
icult	-1584
ights	-1585
ledge	-1586
olves	-1587
vious	-1588
▁Auth	-1589
▁Cont	-1590
▁Each	-1591
▁Expl	-1592
▁cate	-1593
▁cent	-1594
▁chat	-1595
▁ener	-1596
▁exch	-1597
▁expl	-1598
▁long	-1599
▁most	-1600
▁scop	-1601
▁sent	-1602
▁slow	-1603
▁step	-1604
▁synt	-1605
▁them	-1606
▁trav	-1607
▁type	-1608
▁vide	-1609
▁were	-1610
aiting	-1611
ersion	-1612
orator	-1613
respon	-1614
romium	-1615
ternal	-1616
▁PATCH	-1617
▁Smoke	-1618
▁Tests	-1619
▁These	-1620
▁again	-1621
▁broad	-1622
▁displ	-1623
▁fixes	-1624
▁flaky	-1625
▁found	-1626
▁frequ	-1627
▁group	-1628
▁limit	-1629
▁names	-1630
▁needs	-1631
▁order	-1632
▁parts	-1633
▁pract	-1634
▁print	-1635
▁reach	-1636
▁sever	-1637
▁solut	-1638
▁still	-1639
▁these	-1640
▁under	-1641
▁until	-1642
▁words	-1643
browser	-1644
example	-1645
illions	-1646
ociated	-1647
oundary	-1648
owledge	-1649
ributes	-1650
▁DELETE	-1651
▁affect	-1652
▁blocks	-1653
▁compar	-1654
▁deeper	-1655
▁energy	-1656
▁epochs	-1657
▁failed	-1658
▁header	-1659
▁hidden	-1660
▁length	-1661
▁modern	-1662
▁normal	-1663
▁option	-1664
▁poorly	-1665
▁proper	-1666
▁rather	-1667
▁reason	-1668
▁simply	-1669
▁source	-1670
▁submit	-1671
gramming	-1672
plicated	-1673
▁categor	-1674
▁central	-1675
▁chatbot	-1676
▁command	-1677
▁connect	-1678
▁consist	-1679
▁details	-1680
▁logging	-1681
▁maximum	-1682
▁natural	-1683
▁neurons	-1684
▁regular	-1685
▁statist	-1686
▁storage	-1687
▁updates	-1688
▁visible	-1689
▁waiting	-1690
connected	-1691
▁accepted	-1692
▁combines	-1693
▁consider	-1694
▁descript	-1695
▁directly	-1696
▁exchange	-1697
▁external	-1698
▁features	-1699
▁feedback	-1700
▁manually	-1701
▁observed	-1702
▁parallel	-1703
▁provided	-1704
▁relevant	-1705
▁retrieve	-1706
▁strategy	-1707
▁valuable	-1708
playwright	-1709
▁continues	-1710
▁decisions	-1711
▁organized	-1712
▁reproduce	-1713
▁selecting	-1714
▁utilities	-1715
placeholder	-1716
▁Artificial	-1717
▁Automation	-1718
▁accessible	-1719
▁activation	-1720
▁associated	-1721
▁attributes	-1722
▁calculates	-1723
▁checkpoint	-1724
▁experiment	-1725
▁frameworks	-1726
▁functional	-1727
▁introduced	-1728
▁repetitive	-1729
▁visibility	-1730
▁Overfitting	-1731
▁Programming	-1732
▁efficiently	-1733
▁placeholder	-1734
▁statistical	-1735
▁successfully	-1736
▁authenticated	-1737
▁communication	-1738
▁preconditions	-1739
▁probabilities	-1740
▁generalization	-1741
▁interconnected	-1742
▁regularization	-1743
▁synchronization	-1744
):	-1745
ML	-1746
ax	-1747
ef	-1748
he	-1749
ne	-1750
oy	-1751
ph	-1752
uc	-1753
▁-	-1754
▁j	-1755
ade	-1756
apt	-1757
aun	-1758
box	-1759
bug	-1760
cod	-1761
ero	-1762
fox	-1763
ice	-1764
ind	-1765
isf	-1766
ole	-1767
opp	-1768
ops	-1769
ors	-1770
ort	-1771
pag	-1772
pec	-1773
ven	-1774
▁Af	-1775
▁At	-1776
▁He	-1777
▁Se	-1778
▁Un	-1779
▁es	-1780
abul	-1781
ains	-1782
book	-1783
chem	-1784
cise	-1785
dard	-1786
face	-1787
ings	-1788
ints	-1789
itor	-1790
less	-1791
mant	-1792
miss	-1793
seen	-1794
sequ	-1795
ysis	-1796
▁Boo	-1797
▁End	-1798
▁cap	-1799
▁cor	-1800
▁del	-1801
▁ear	-1802
▁her	-1803
▁lif	-1804
▁mon	-1805
▁nod	-1806
▁pip	-1807
▁sky	-1808
▁tem	-1809
▁tog	-1810
▁voc	-1811
ables	-1812
adata	-1813
aunch	-1814
ffect	-1815
ickly	-1816
istic	-1817
label	-1818
ology	-1819
ounts	-1820
refox	-1821
ripts	-1822
tings	-1823
▁Exam	-1824
▁both	-1825
▁capt	-1826
▁clos	-1827
▁dele	-1828
▁educ	-1829
▁hard	-1830
▁inst	-1831
▁iter	-1832
▁less	-1833
▁line	-1834
▁made	-1835
▁mark	-1836
▁must	-1837
▁note	-1838
▁only	-1839
▁plan	-1840
▁prot	-1841
▁self	-1842
▁sets	-1843
▁sign	-1844
▁stan	-1845
▁task	-1846
▁then	-1847
▁very	-1848
▁writ	-1849
ackpro	-1850
atches	-1851
ducing	-1852
gative	-1853
idence	-1854
inuous	-1855
mantic	-1856
ommend	-1857
opping	-1858
▁After	-1859
▁addit	-1860
▁debug	-1861
▁image	-1862
▁integ	-1863
▁later	-1864
▁solve	-1865
▁stack	-1866
▁there	-1867
▁users	-1868
▁write	-1869
abulary	-1870
paramet	-1871
waiting	-1872
▁Integr	-1873
▁Neural	-1874
▁appear	-1875
▁around	-1876
▁assign	-1877
▁behave	-1878
▁bodies	-1879
▁larger	-1880
▁person	-1881
▁refers	-1882
▁satisf	-1883
▁states	-1884
▁syntax	-1885
▁unseen	-1886
▁videos	-1887
ications	-1888
pagation	-1889
▁Boolean	-1890
▁Explain	-1891
▁Firefox	-1892
▁adjusts	-1893
▁against	-1894
▁batches	-1895
▁changed	-1896
▁cleanup	-1897
▁current	-1898
▁depends	-1899
▁descent	-1900
▁devices	-1901
▁display	-1902
▁earlier	-1903
▁forward	-1904
▁instead	-1905
▁matches	-1906
▁modules	-1907
▁monitor	-1908
▁ordered	-1909
▁permiss	-1910
▁prevent	-1911
▁quickly	-1912
▁reduces	-1913
▁release	-1914
▁remains	-1915
▁returns	-1916
▁scripts	-1917
▁sending	-1918
▁service	-1919
▁special	-1920
▁support	-1921
▁travels	-1922
▁weights	-1923
unctional	-1924
▁Chromium	-1925
▁Examples	-1926
▁Fixtures	-1927
▁Severity	-1928
▁actually	-1929
▁analysis	-1930
▁approach	-1931
▁attempts	-1932
▁changing	-1933
▁combined	-1934
▁creation	-1935
▁evaluate	-1936
▁executes	-1937
▁indicate	-1938
▁involves	-1939
▁metadata	-1940
▁notebook	-1941
▁predicts	-1942
▁previous	-1943
▁returned	-1944
▁semantic	-1945
▁settings	-1946
▁standard	-1947
▁stopping	-1948
▁strongly	-1949
▁together	-1950
ansformers	-1951
ecessarily	-1952
supervised	-1953
▁Attention	-1954
▁computing	-1955
▁connected	-1956
▁converted	-1957
▁difficult	-1958
▁discovery	-1959
▁diversity	-1960
▁including	-1961
▁	-1962
e	-1963
t	-1964
a	-1965
s	-1966
n	-1967
i	-1968
o	-1969
r	-1970
l	-1971
c	-1972
d	-1973
u	-1974
h	-1975
m	-1976
p	-1977
g	-1978
f	-1979
b	-1980
y	-1981
.	-1982
,	-1983
w	-1984
v	-1985
A	-1986
:	-1987
k	-1988
x	-1989
P	-1990
T	-1991
U	-1992
?	-1993
W	-1994
I	-1995
q	-1996
S	-1997
z	-1998
-	-1999
H	-2000
E	-2001
D	-2002
j	-2003
C	-2004
M	-2005
G	-2006
_	-2007
R	-2008
"	-2009
0	-2010
L	-2011
(	-2012
)	-2013
F	-2014
O	-2015
4	-2016
B	-2017
N	-2018
1	-2019
2	-2020
'	-2021
=	-2022
/	-2023
X	-2024
J	-2025
V	-2026
3	-2027
5	-2028
K	-2029
9	-2030
Y	-2031
+	-2032
@	-2033
Q	-2034
[	-2035
]	-2036
;	-2037
Z	-2038
{	-2039
}	-2040
